module {
  func.func @_clear_forward_proxy(%arg0: tensor<1x1x28x28x!FHE.esint<17>>) -> tensor<1x10x!FHE.esint<17>> {
    %c1_i18 = arith.constant 1 : i18
    %0 = "FHE.zero_tensor"() : () -> tensor<1x1x30x30x!FHE.eint<17>>
    %from_elements = tensor.from_elements %c1_i18 : tensor<1xi18>
    %1 = "FHELinalg.add_eint_int"(%0, %from_elements) : (tensor<1x1x30x30x!FHE.eint<17>>, tensor<1xi18>) -> tensor<1x1x30x30x!FHE.eint<17>>
    %c-95_i9 = arith.constant -95 : i9
    %from_elements_0 = tensor.from_elements %c-95_i9 : tensor<1xi9>
    %2 = "FHELinalg.to_signed"(%1) : (tensor<1x1x30x30x!FHE.eint<17>>) -> tensor<1x1x30x30x!FHE.esint<17>>
    %3 = "FHELinalg.mul_eint_int"(%2, %from_elements_0) : (tensor<1x1x30x30x!FHE.esint<17>>, tensor<1xi9>) -> tensor<1x1x30x30x!FHE.esint<17>>
    %inserted_slice = tensor.insert_slice %arg0 into %3[0, 0, 1, 1] [1, 1, 28, 28] [1, 1, 1, 1] : tensor<1x1x28x28x!FHE.esint<17>> into tensor<1x1x30x30x!FHE.esint<17>>
    %cst = arith.constant dense<[[[[-8, 31, 10], [64, 53, -70], [34, -55, -70]]], [[[-15, 1, 19], [-29, -44, -16], [-30, 3, -50]]], [[[-94, -51, -72], [57, 103, -67], [-59, 95, 3]]], [[[68, 10, -94], [-68, -43, 18], [104, 127, -89]]], [[[-65, -57, 51], [-19, 37, -13], [-25, -63, 11]]]]> : tensor<5x1x3x3xi9>
    %4 = "FHELinalg.conv2d"(%inserted_slice, %cst) {dilations = dense<1> : tensor<2xi64>, group = 1 : i64, padding = dense<0> : tensor<4xi64>, strides = dense<1> : tensor<2xi64>} : (tensor<1x1x30x30x!FHE.esint<17>>, tensor<5x1x3x3xi9>) -> tensor<1x5x28x28x!FHE.esint<17>>
    %5 = "FHELinalg.round"(%4) : (tensor<1x5x28x28x!FHE.esint<17>>) -> tensor<1x5x28x28x!FHE.esint<6>>
    %cst_1 = arith.constant dense<"0x00000000000000000000000000000000000000000000000000000000000000000000000000000000000000000000000000000000000000000000000000000000000000000000000000000000000000000000000000000000000000000000000000000000000000000000000000000000000000000000000000000000000000000000000000000000000000000000000000000000000000000000000000000000000000000000000000000000000000000000000000000000000000000000000000000000000000000000000000000000000000000000000000000000000000000000000000000000000000000000000000000000000000000000000000000000000000000000000000000000000000000000000000000000000000000000000000000000000000000000000000000000000000000000000000000000000000000000000000000000000000000000000000000000000000000000000000000000000000000000000000000000000000000000000000000000000000000000000000000000000000000000000000000000000000000000000000000000000000000000000000000000000000000000000000000000000000000000000000000000000000000000000000000000000000000000000000000000000000000000000000000000000000000000000000000000000000000000000000000000000000000000000000000000000000000000000000000000000000000000000000000000000000000000000000000000000000000000000000000000000000000000000000000000000000000000000000000000000000000000000000000000000000000000000000000000000000000000000000000000000000000000000000000000000000000000000000000000000000000000000000000000000000000000000000000000000000000000000000000000000000000000000000000000000000000000000000000000000000000000000000000000000000000000000000000000000000000000000000000000000000000000000000000000000000000000000000000000000000000000000000000000000000000000000000000000000000000000000000000000000000000000000000000000000000000000000000000000000000000000000000000000000000000000000000000000000000000000000000000000000000000000000000000000000000000000000000000000000000000000000000000000000000000000000000000000000000000000000000000000000000000000000000000000000000000000000000000000000000000000000000000000000000000000000000000000000000000000000000000000000000000000000000000000000000000000000000000000000000000000000000000000000000000000000000000000000000000000000000000000000000000000000000000000000000000000000000000000000000000000000000000000000000000000000000000000000000000000000000000000000000000000000000000000000000000000000000000000000000000000000000000000000000000000000000000000000000000000000000000000000000000000000000000000000000000000000000000000000000000000000000000000000000000000000000000000000000000000000000000000000000000000000000000000000000000000000000000000000000000000000000000000000000000000000000000000000000000000000000000000000000000000000000000000000000000000000000000000000000000000000000000000000000000000000000000000000000000000000000000000000000000000000000000000000000000000000000000000000000000000000000000000000000000000000000000000000000000000000000000000000000000000000000000000000000000000000000000000000000000000000000000000000000000000000000000000000000000000000000000000000000000000000000000000000000000000000000000000000000000000000000000000000000000000000000000000000000000000000000000000000000000000000000000000000000000000000000000000000000000000000000000000000000000000000000000000000000000000000000000000000000000000000000000000000000000000000000000000000000000000000000000000000000000000000000000000000000000000000000000000000000000000000000000000000000000000000000000000000000000000000000000000000000000000000000000000000000000000000000000000000000000000000000000000000000000000000000000000000000000000000000000000000000000000000000000000000000000000000000000000000000000000000000000000000000000000000000000000000000000000000000000000000000000000000000000000000000000000000000000000000000000000000000000000000000000000000000000000000000000000000000000000000000000000000000000000000000000000000000000000000000000000000000000000000000000000000000000000000000000000000000000000000000000000000000000000000000000000000000000000000000000000000000000000000000000000000000000000000000000000000000000000000000000000000000000000000000000000000000000000000000000000000000000000000000000000000000000000000000000000000000000000000000000000000000000000000000000000000000000000000000000000000000000000000000000000000000000000000000000000000000000000000000000000000000000000000000000000000000000000000000000000000000000000000000000000000000000000000000000000000000000000000000000000000000000000000000000000000000000000000000000000000000000000000000000000000000000000000000000000000000000000000000000000000000000000000000000000000000000000000000000000000000000000000000000000000000000000000000000000000000000000000000000000000000000000000000000000000000000000000000000000000000000000000000000000000000000000000000000000000000000000000000000000000000000000000000000000000000000000000000000000000000000000000000000000000000000000000000000000000000000000000000000000000000000000000000000000000000000000000000000000000000000000000000000000000000000000000000000000000000000000000000000000000000000000000000000000000000000000000000000000000000000000000000000000000000000000000000000000000000000000000000000000000000000000000000000000000000000000000000000000000000000000000000000000000000000000000000000000000000000000000000000000000000000000000000000000000000000000000000000000000000000000000000000000000000000000000000000000000000000000000000000000000000000000000000000000000000000000000000000000000000000000000000000000000000000000000000000000000000000000000000000000000000000000000000000000000000000000000000000000000000000000000000000000000000000000000000000000000000000000000000000000000000000000000000000000000000000000000000000000000000000000000000000000000000000000000000000000000000000000000000000000000000000000000000000000000000000000000000000000000000000000000000000000000000000000000000000000000000000000000000000000000000000000000000000000000000000000000000000000000000000000000000000000000000000000000000000000000000000000000000000000000000000000000000000000000000000000000000000000000000000000000000000000000000000000000000000000000000000000000000000000000000000000000000000000000000000000000000000000000000000000000000000000000000000000000000000000000000000000000000000000000000000000000000000000000000000000000000000000000000000000000000000000000000000000000000000000000000000000000000000000000000000000000000000000000000000000000000000000000000000000000000000000000000000000000000000000000000000000000000000000000000000000000000000000000000000000000000000000000000000000000000000000000000000000000000000000000000000000000000000000000000000000000000000000000000000000000000000000000000000000000000000000000000000000000000000000000000000000000000000000000000000000000000000000000000000000000000000000000000000000000000000000000000000000000000000000000000000000000000000000000000000000000000000000000000000000000000000000000000000000000000000000000000000000000000000000000000000000000000000000000000000000000000000000000000000000000000000000000000000000000000000000000000000000000000000000000000000000000000000000000000000000000000000000000000000000000000000000000000000000000000000000000000000000000000000000000000000000000000000000000000000000000000000000000000000000000000000000000000000000000000000000000000000000000000000000000000000000000000000000000000000000000000000000000000000000000000000000000000000000000000000000000000000000000000000000000000000000000000000000000000000000000000000000000000000000000000000000000000000000000000000000000000000000000000000000000000000000000000000000000000000000000000000000000000000000000000000000000000000000000000000000000000000000000000000000000000000000000000000000000000000000000000000000000000000000000000000000000000000000000000000000000000000000000000000000000000000000000000000000000000000000000000000000000000000000000000000000000000000000000000000000000000000000000000000000000000000000000000000000000000000000000000000000000000000000000000000000000000000000000000000000000000000000000000000000000000000000000000000000000000000000000000000000000000000000000000000000000000000000000000000000000000000000000000000000000000000000000000000000000000000000000000000000000000000000000000000000000000000000000000000000000000000000000000000000000000000000000000000000000000000000000000000000000000000000000000000000000000000000000000000000000000000000000000000000000000000000000000000000000000000000000000000000000000000000000000000000000000000000000000000000000000000000000000000000000000000000000000000000000000000000000000000000000000000000000000000000000000000000000000000000000000000000000000000000000000000000000000000000000000000000000000000000000000000000000000000000000000000000000000000000000000000000000000000000000000000000000000000000000000000000000000000000000000000000000000000000000000000000000000000000000000000000000000000000000000000000000000000000000000000000000000000000000000000000000000000000000000000000000000000000000000000000000000000000000000000000000000000000000000000000000000000000000000000000000000000000000000000000000000000000000000000000000000000000000000000000000000000000000000000000000000000000000000000000000000000000000000000000000000000000000000000000000000000000000000000000000000000000000000000000000000000000000000000000000000000000000000000000000000000000000000000000000000000000000000000000000000000000000000000000000000000000000000000000000000000000000000000000000000000000000000000000000000000000000000000000000000000000000000000000000000000000000000000000000000000000000000000000000000000000000000000000000000000000000000000000000000000000000000000000000000000000000000000000000000000000000000000000000000000000000000000000000000000000000000000000000000000000000000000000000000000000000000000000000000000000000000000000000000000000000000000000000000000000000000000000000000000000000000000000000000000000000000000000000000000000000000000000000000000000000000000000000000000000000000000000000000000000000000000000000000000000000000000000000000000000000000000000000000000000000000000000000000000000000000000000000000000000000000000000000000000000000000000000000000000000000000000000000000000000000000000000000000000000000000000000000000000000000000000000000000000000000000000000000000000000000000000000000000000000000000000000000000000000000000000000000000000000000000000000000000000000000000000000000000000000000000000000000000000000000000000000000000000000000000000000000000000000000000000000000000000000000000000000000000000000000000000000000000000000000000000000000000000000000000000000000000000000000000000000000000000000000000000000000000000000000000000000000000000000000000000000000000000000000000000000000000000000000000000000000000000000000000000000000000000000000000000000000000000000000000000000000000000000000000000000000000000000000000000000000000000000000000000000000000000000000000000000000000000000000000000000000000000000000000000000000000000000000000000000000000000000000000000000000000000000000000000000000000000000000000000000000000000000000000000000000000000000000000000000000000000000000000000000000000000000000000000000000000000000000000000000000000000000000000000000000000000000000000000000000000000000000000000000000000000000000000000000000000000000000000000000000000000000000000000000000000000000000000000000000000000000000000000000000000000000000000000000000000000000000000000000000000000000000000000000000000000000000000000000000000000000000000000000000000000000000000000000000000000000000000000000000000000000000000000000000000000000000000000000000000000000000000000000000000000000000000000000000000000000000000000000000000000000000000000000000000000000000000000000000000000000000000000000000000000000000000000000000000000000000000000000000000000000000000000000000000000000000000000000000000000000000000000000000000000000000000000000000000000000000000000000000000000000000000000000000000000000000000000000000000000000000000000000000000000000000000000000000000000000000000000000000000000000000000000000000000000000000000000000000000000000000000000000000000000000000000000000000000000000000000000000000000000000000000000000000000000000000000000000000000000000000000000000000000000000000000000000000000000000000000000000000000000000000000000000000000000000000000000000000000000000000000000000000000000000000000000000000000000000000000000000000000000000000000000000000000000000000000000000000000000000000000000000000000000000000000000000000000000000000000000000000000000000000000000000000000000000000000000000000000000000000000000000000000000000000000000000000000000000000000000000000000000000000000000000000000000000000000000000000000000000000000000000000000000100000000000000010000000000000001000000000000000100000000000000010000000000000001000000000000000100000000000000010000000000000001000000000000000100000000000000010000000000000001000000000000000100000000000000010000000000000001000000000000000100000000000000010000000000000001000000000000000100000000000000010000000000000001000000000000000100000000000000010000000000000001000000000000000100000000000000010000000000000001000000000000000100000000000000010000000000000001000000000000000100000000000000010000000000000001000000000000000100000000000000010000000000000001000000000000000100000000000000010000000000000001000000000000000100000000000000010000000000000001000000000000000100000000000000010000000000000001000000000000000100000000000000010000000000000001000000000000000100000000000000010000000000000001000000000000000100000000000000010000000000000001000000000000000100000000000000010000000000000001000000000000000100000000000000010000000000000001000000000000000100000000000000010000000000000001000000000000000100000000000000010000000000000001000000000000000100000000000000010000000000000001000000000000000100000000000000010000000000000001000000000000000100000000000000010000000000000001000000000000000100000000000000010000000000000001000000000000000100000000000000010000000000000001000000000000000100000000000000010000000000000001000000000000000100000000000000010000000000000001000000000000000100000000000000010000000000000001000000000000000100000000000000010000000000000001000000000000000100000000000000010000000000000001000000000000000100000000000000010000000000000001000000000000000100000000000000010000000000000001000000000000000100000000000000010000000000000001000000000000000100000000000000010000000000000001000000000000000100000000000000010000000000000001000000000000000100000000000000010000000000000001000000000000000100000000000000010000000000000001000000000000000100000000000000010000000000000001000000000000000100000000000000010000000000000001000000000000000100000000000000010000000000000001000000000000000100000000000000010000000000000001000000000000000100000000000000010000000000000001000000000000000100000000000000010000000000000001000000000000000100000000000000010000000000000001000000000000000100000000000000010000000000000001000000000000000100000000000000010000000000000001000000000000000100000000000000010000000000000001000000000000000100000000000000010000000000000001000000000000000100000000000000010000000000000001000000000000000100000000000000010000000000000001000000000000000100000000000000010000000000000001000000000000000100000000000000010000000000000001000000000000000100000000000000010000000000000001000000000000000100000000000000010000000000000001000000000000000100000000000000010000000000000001000000000000000100000000000000010000000000000001000000000000000100000000000000010000000000000001000000000000000100000000000000010000000000000001000000000000000100000000000000010000000000000001000000000000000100000000000000010000000000000001000000000000000100000000000000010000000000000001000000000000000100000000000000010000000000000001000000000000000100000000000000010000000000000001000000000000000100000000000000010000000000000001000000000000000100000000000000010000000000000001000000000000000100000000000000010000000000000001000000000000000100000000000000010000000000000001000000000000000100000000000000010000000000000001000000000000000100000000000000010000000000000001000000000000000100000000000000010000000000000001000000000000000100000000000000010000000000000001000000000000000100000000000000010000000000000001000000000000000100000000000000010000000000000001000000000000000100000000000000010000000000000001000000000000000100000000000000010000000000000001000000000000000100000000000000010000000000000001000000000000000100000000000000010000000000000001000000000000000100000000000000010000000000000001000000000000000100000000000000010000000000000001000000000000000100000000000000010000000000000001000000000000000100000000000000010000000000000001000000000000000100000000000000010000000000000001000000000000000100000000000000010000000000000001000000000000000100000000000000010000000000000001000000000000000100000000000000010000000000000001000000000000000100000000000000010000000000000001000000000000000100000000000000010000000000000001000000000000000100000000000000010000000000000001000000000000000100000000000000010000000000000001000000000000000100000000000000010000000000000001000000000000000100000000000000010000000000000001000000000000000100000000000000010000000000000001000000000000000100000000000000010000000000000001000000000000000100000000000000010000000000000001000000000000000100000000000000010000000000000001000000000000000100000000000000010000000000000001000000000000000100000000000000010000000000000001000000000000000100000000000000010000000000000001000000000000000100000000000000010000000000000001000000000000000100000000000000010000000000000001000000000000000100000000000000010000000000000001000000000000000100000000000000010000000000000001000000000000000100000000000000010000000000000001000000000000000100000000000000010000000000000001000000000000000100000000000000010000000000000001000000000000000100000000000000010000000000000001000000000000000100000000000000010000000000000001000000000000000100000000000000010000000000000001000000000000000100000000000000010000000000000001000000000000000100000000000000010000000000000001000000000000000100000000000000010000000000000001000000000000000100000000000000010000000000000001000000000000000100000000000000010000000000000001000000000000000100000000000000010000000000000001000000000000000100000000000000010000000000000001000000000000000100000000000000010000000000000001000000000000000100000000000000010000000000000001000000000000000100000000000000010000000000000001000000000000000100000000000000010000000000000001000000000000000100000000000000010000000000000001000000000000000100000000000000010000000000000001000000000000000100000000000000010000000000000001000000000000000100000000000000010000000000000001000000000000000100000000000000010000000000000001000000000000000100000000000000010000000000000001000000000000000100000000000000010000000000000001000000000000000100000000000000010000000000000001000000000000000100000000000000010000000000000001000000000000000100000000000000010000000000000001000000000000000100000000000000010000000000000001000000000000000100000000000000010000000000000001000000000000000100000000000000010000000000000001000000000000000100000000000000010000000000000001000000000000000100000000000000010000000000000001000000000000000100000000000000010000000000000001000000000000000100000000000000010000000000000001000000000000000100000000000000010000000000000001000000000000000100000000000000010000000000000001000000000000000100000000000000010000000000000001000000000000000100000000000000010000000000000001000000000000000100000000000000010000000000000001000000000000000100000000000000010000000000000001000000000000000100000000000000010000000000000001000000000000000100000000000000010000000000000001000000000000000100000000000000010000000000000001000000000000000100000000000000010000000000000001000000000000000100000000000000010000000000000001000000000000000100000000000000010000000000000001000000000000000100000000000000010000000000000001000000000000000100000000000000010000000000000001000000000000000100000000000000010000000000000001000000000000000100000000000000010000000000000001000000000000000100000000000000010000000000000001000000000000000100000000000000010000000000000001000000000000000100000000000000010000000000000001000000000000000100000000000000010000000000000001000000000000000100000000000000010000000000000001000000000000000100000000000000010000000000000001000000000000000100000000000000010000000000000001000000000000000100000000000000010000000000000001000000000000000100000000000000010000000000000001000000000000000100000000000000010000000000000001000000000000000100000000000000010000000000000001000000000000000100000000000000010000000000000001000000000000000100000000000000010000000000000001000000000000000100000000000000010000000000000001000000000000000100000000000000010000000000000001000000000000000100000000000000010000000000000001000000000000000100000000000000010000000000000001000000000000000100000000000000010000000000000001000000000000000100000000000000010000000000000001000000000000000100000000000000010000000000000001000000000000000100000000000000010000000000000001000000000000000100000000000000010000000000000001000000000000000100000000000000010000000000000001000000000000000100000000000000010000000000000001000000000000000100000000000000010000000000000001000000000000000100000000000000010000000000000001000000000000000100000000000000010000000000000001000000000000000100000000000000010000000000000001000000000000000100000000000000010000000000000001000000000000000100000000000000010000000000000001000000000000000100000000000000010000000000000001000000000000000100000000000000010000000000000001000000000000000100000000000000010000000000000001000000000000000100000000000000010000000000000001000000000000000100000000000000010000000000000001000000000000000100000000000000010000000000000001000000000000000100000000000000010000000000000001000000000000000100000000000000010000000000000001000000000000000100000000000000010000000000000001000000000000000100000000000000010000000000000001000000000000000100000000000000010000000000000001000000000000000100000000000000010000000000000001000000000000000100000000000000010000000000000001000000000000000100000000000000010000000000000001000000000000000100000000000000010000000000000001000000000000000100000000000000010000000000000001000000000000000100000000000000010000000000000001000000000000000100000000000000010000000000000001000000000000000100000000000000010000000000000001000000000000000100000000000000010000000000000001000000000000000100000000000000010000000000000001000000000000000100000000000000010000000000000001000000000000000100000000000000010000000000000001000000000000000100000000000000010000000000000001000000000000000100000000000000010000000000000001000000000000000100000000000000010000000000000001000000000000000100000000000000010000000000000001000000000000000100000000000000010000000000000001000000000000000100000000000000010000000000000001000000000000000100000000000000010000000000000001000000000000000100000000000000010000000000000001000000000000000100000000000000010000000000000001000000000000000100000000000000010000000000000001000000000000000100000000000000010000000000000001000000000000000100000000000000010000000000000001000000000000000100000000000000010000000000000001000000000000000100000000000000010000000000000001000000000000000100000000000000010000000000000001000000000000000100000000000000010000000000000001000000000000000100000000000000010000000000000001000000000000000100000000000000010000000000000001000000000000000100000000000000010000000000000001000000000000000100000000000000010000000000000001000000000000000100000000000000010000000000000001000000000000000100000000000000010000000000000001000000000000000100000000000000010000000000000001000000000000000100000000000000010000000000000001000000000000000100000000000000010000000000000001000000000000000100000000000000010000000000000001000000000000000100000000000000010000000000000001000000000000000100000000000000010000000000000001000000000000000100000000000000010000000000000001000000000000000100000000000000010000000000000001000000000000000100000000000000010000000000000001000000000000000100000000000000010000000000000001000000000000000100000000000000010000000000000001000000000000000100000000000000010000000000000001000000000000000100000000000000010000000000000001000000000000000100000000000000010000000000000001000000000000000100000000000000010000000000000001000000000000000100000000000000010000000000000001000000000000000100000000000000010000000000000001000000000000000100000000000000010000000000000001000000000000000100000000000000010000000000000001000000000000000100000000000000010000000000000001000000000000000100000000000000010000000000000001000000000000000100000000000000010000000000000001000000000000000100000000000000010000000000000001000000000000000100000000000000010000000000000001000000000000000100000000000000010000000000000001000000000000000100000000000000010000000000000001000000000000000100000000000000010000000000000001000000000000000100000000000000010000000000000001000000000000000100000000000000010000000000000001000000000000000100000000000000010000000000000001000000000000000100000000000000010000000000000001000000000000000100000000000000010000000000000001000000000000000100000000000000020000000000000002000000000000000200000000000000020000000000000002000000000000000200000000000000020000000000000002000000000000000200000000000000020000000000000002000000000000000200000000000000020000000000000002000000000000000200000000000000020000000000000002000000000000000200000000000000020000000000000002000000000000000200000000000000020000000000000002000000000000000200000000000000020000000000000002000000000000000200000000000000020000000000000002000000000000000200000000000000020000000000000002000000000000000200000000000000020000000000000002000000000000000200000000000000020000000000000002000000000000000200000000000000020000000000000002000000000000000200000000000000020000000000000002000000000000000200000000000000020000000000000002000000000000000200000000000000020000000000000002000000000000000200000000000000020000000000000002000000000000000200000000000000020000000000000002000000000000000200000000000000020000000000000002000000000000000200000000000000020000000000000002000000000000000200000000000000020000000000000002000000000000000200000000000000020000000000000002000000000000000200000000000000020000000000000002000000000000000200000000000000020000000000000002000000000000000200000000000000020000000000000002000000000000000200000000000000020000000000000002000000000000000200000000000000020000000000000002000000000000000200000000000000020000000000000002000000000000000200000000000000020000000000000002000000000000000200000000000000020000000000000002000000000000000200000000000000020000000000000002000000000000000200000000000000020000000000000002000000000000000200000000000000020000000000000002000000000000000200000000000000020000000000000002000000000000000200000000000000020000000000000002000000000000000200000000000000020000000000000002000000000000000200000000000000020000000000000002000000000000000200000000000000020000000000000002000000000000000200000000000000020000000000000002000000000000000200000000000000020000000000000002000000000000000200000000000000020000000000000002000000000000000200000000000000020000000000000002000000000000000200000000000000020000000000000002000000000000000200000000000000020000000000000002000000000000000200000000000000020000000000000002000000000000000200000000000000020000000000000002000000000000000200000000000000020000000000000002000000000000000200000000000000020000000000000002000000000000000200000000000000020000000000000002000000000000000200000000000000020000000000000002000000000000000200000000000000020000000000000002000000000000000200000000000000020000000000000002000000000000000200000000000000020000000000000002000000000000000200000000000000020000000000000002000000000000000200000000000000020000000000000002000000000000000200000000000000020000000000000002000000000000000200000000000000020000000000000002000000000000000200000000000000020000000000000002000000000000000200000000000000020000000000000002000000000000000200000000000000020000000000000002000000000000000200000000000000020000000000000002000000000000000200000000000000020000000000000002000000000000000200000000000000020000000000000002000000000000000200000000000000020000000000000002000000000000000200000000000000020000000000000002000000000000000200000000000000020000000000000002000000000000000200000000000000020000000000000002000000000000000200000000000000020000000000000002000000000000000200000000000000020000000000000002000000000000000200000000000000020000000000000002000000000000000200000000000000020000000000000002000000000000000200000000000000020000000000000002000000000000000200000000000000020000000000000002000000000000000200000000000000020000000000000002000000000000000200000000000000020000000000000002000000000000000200000000000000020000000000000002000000000000000200000000000000020000000000000002000000000000000200000000000000020000000000000002000000000000000200000000000000020000000000000002000000000000000200000000000000020000000000000002000000000000000200000000000000020000000000000002000000000000000200000000000000020000000000000002000000000000000200000000000000020000000000000002000000000000000200000000000000020000000000000002000000000000000200000000000000020000000000000002000000000000000200000000000000020000000000000002000000000000000200000000000000020000000000000002000000000000000200000000000000020000000000000002000000000000000200000000000000020000000000000002000000000000000200000000000000020000000000000002000000000000000200000000000000020000000000000002000000000000000200000000000000020000000000000002000000000000000200000000000000020000000000000002000000000000000200000000000000020000000000000002000000000000000200000000000000020000000000000002000000000000000200000000000000020000000000000002000000000000000200000000000000020000000000000002000000000000000200000000000000020000000000000002000000000000000200000000000000020000000000000002000000000000000200000000000000020000000000000002000000000000000200000000000000020000000000000002000000000000000200000000000000020000000000000002000000000000000200000000000000020000000000000002000000000000000200000000000000020000000000000002000000000000000200000000000000020000000000000002000000000000000200000000000000020000000000000002000000000000000200000000000000020000000000000002000000000000000200000000000000020000000000000002000000000000000200000000000000020000000000000002000000000000000200000000000000020000000000000002000000000000000200000000000000020000000000000002000000000000000200000000000000020000000000000002000000000000000200000000000000020000000000000002000000000000000200000000000000020000000000000002000000000000000200000000000000020000000000000002000000000000000200000000000000020000000000000002000000000000000200000000000000020000000000000002000000000000000200000000000000020000000000000002000000000000000200000000000000020000000000000002000000000000000200000000000000020000000000000002000000000000000200000000000000020000000000000002000000000000000200000000000000020000000000000002000000000000000200000000000000020000000000000002000000000000000200000000000000020000000000000002000000000000000200000000000000020000000000000002000000000000000200000000000000020000000000000002000000000000000200000000000000020000000000000002000000000000000200000000000000020000000000000002000000000000000200000000000000020000000000000002000000000000000200000000000000020000000000000002000000000000000200000000000000020000000000000002000000000000000200000000000000020000000000000002000000000000000200000000000000020000000000000002000000000000000200000000000000020000000000000002000000000000000200000000000000020000000000000002000000000000000200000000000000020000000000000002000000000000000200000000000000020000000000000002000000000000000200000000000000020000000000000002000000000000000200000000000000020000000000000002000000000000000200000000000000020000000000000002000000000000000200000000000000020000000000000002000000000000000200000000000000020000000000000002000000000000000200000000000000020000000000000002000000000000000200000000000000020000000000000002000000000000000200000000000000020000000000000002000000000000000200000000000000020000000000000002000000000000000200000000000000020000000000000002000000000000000200000000000000020000000000000002000000000000000200000000000000020000000000000002000000000000000200000000000000020000000000000002000000000000000200000000000000020000000000000002000000000000000200000000000000020000000000000002000000000000000200000000000000020000000000000002000000000000000200000000000000020000000000000002000000000000000200000000000000020000000000000002000000000000000200000000000000020000000000000002000000000000000200000000000000020000000000000002000000000000000200000000000000020000000000000002000000000000000200000000000000020000000000000002000000000000000200000000000000020000000000000002000000000000000200000000000000020000000000000002000000000000000200000000000000020000000000000002000000000000000200000000000000020000000000000002000000000000000200000000000000020000000000000002000000000000000200000000000000020000000000000002000000000000000200000000000000020000000000000002000000000000000200000000000000020000000000000002000000000000000200000000000000020000000000000002000000000000000200000000000000020000000000000002000000000000000200000000000000020000000000000002000000000000000200000000000000020000000000000002000000000000000200000000000000020000000000000002000000000000000200000000000000020000000000000002000000000000000200000000000000020000000000000002000000000000000200000000000000020000000000000002000000000000000200000000000000020000000000000002000000000000000200000000000000020000000000000002000000000000000200000000000000020000000000000002000000000000000200000000000000020000000000000002000000000000000200000000000000020000000000000002000000000000000200000000000000020000000000000002000000000000000200000000000000020000000000000002000000000000000200000000000000020000000000000002000000000000000200000000000000020000000000000002000000000000000200000000000000020000000000000002000000000000000200000000000000020000000000000002000000000000000200000000000000020000000000000002000000000000000200000000000000020000000000000002000000000000000200000000000000020000000000000002000000000000000200000000000000020000000000000002000000000000000200000000000000020000000000000002000000000000000200000000000000020000000000000002000000000000000200000000000000020000000000000002000000000000000200000000000000020000000000000002000000000000000200000000000000020000000000000002000000000000000200000000000000020000000000000002000000000000000200000000000000020000000000000002000000000000000200000000000000020000000000000002000000000000000200000000000000020000000000000002000000000000000200000000000000020000000000000002000000000000000200000000000000020000000000000002000000000000000200000000000000020000000000000002000000000000000200000000000000020000000000000002000000000000000200000000000000020000000000000002000000000000000200000000000000020000000000000002000000000000000200000000000000020000000000000002000000000000000200000000000000020000000000000002000000000000000200000000000000020000000000000002000000000000000200000000000000020000000000000002000000000000000200000000000000020000000000000002000000000000000200000000000000020000000000000002000000000000000200000000000000020000000000000002000000000000000200000000000000020000000000000002000000000000000200000000000000020000000000000002000000000000000200000000000000020000000000000002000000000000000200000000000000020000000000000002000000000000000200000000000000020000000000000002000000000000000200000000000000020000000000000002000000000000000200000000000000020000000000000002000000000000000200000000000000020000000000000002000000000000000200000000000000020000000000000002000000000000000200000000000000020000000000000002000000000000000200000000000000020000000000000002000000000000000200000000000000020000000000000002000000000000000200000000000000020000000000000002000000000000000200000000000000020000000000000002000000000000000200000000000000020000000000000002000000000000000200000000000000020000000000000002000000000000000200000000000000020000000000000002000000000000000200000000000000020000000000000002000000000000000200000000000000020000000000000002000000000000000200000000000000020000000000000002000000000000000200000000000000020000000000000002000000000000000200000000000000020000000000000002000000000000000200000000000000020000000000000002000000000000000200000000000000020000000000000002000000000000000200000000000000020000000000000002000000000000000200000000000000020000000000000002000000000000000200000000000000020000000000000002000000000000000200000000000000020000000000000002000000000000000200000000000000020000000000000002000000000000000200000000000000020000000000000002000000000000000200000000000000020000000000000002000000000000000200000000000000020000000000000002000000000000000200000000000000020000000000000002000000000000000200000000000000020000000000000002000000000000000200000000000000020000000000000002000000000000000200000000000000020000000000000002000000000000000200000000000000020000000000000002000000000000000200000000000000020000000000000002000000000000000200000000000000020000000000000002000000000000000200000000000000020000000000000002000000000000000200000000000000020000000000000002000000000000000200000000000000020000000000000002000000000000000200000000000000020000000000000002000000000000000200000000000000020000000000000002000000000000000200000000000000020000000000000002000000000000000200000000000000020000000000000002000000000000000200000000000000020000000000000002000000000000000200000000000000020000000000000002000000000000000200000000000000020000000000000003000000000000000300000000000000030000000000000003000000000000000300000000000000030000000000000003000000000000000300000000000000030000000000000003000000000000000300000000000000030000000000000003000000000000000300000000000000030000000000000003000000000000000300000000000000030000000000000003000000000000000300000000000000030000000000000003000000000000000300000000000000030000000000000003000000000000000300000000000000030000000000000003000000000000000300000000000000030000000000000003000000000000000300000000000000030000000000000003000000000000000300000000000000030000000000000003000000000000000300000000000000030000000000000003000000000000000300000000000000030000000000000003000000000000000300000000000000030000000000000003000000000000000300000000000000030000000000000003000000000000000300000000000000030000000000000003000000000000000300000000000000030000000000000003000000000000000300000000000000030000000000000003000000000000000300000000000000030000000000000003000000000000000300000000000000030000000000000003000000000000000300000000000000030000000000000003000000000000000300000000000000030000000000000003000000000000000300000000000000030000000000000003000000000000000300000000000000030000000000000003000000000000000300000000000000030000000000000003000000000000000300000000000000030000000000000003000000000000000300000000000000030000000000000003000000000000000300000000000000030000000000000003000000000000000300000000000000030000000000000003000000000000000300000000000000030000000000000003000000000000000300000000000000030000000000000003000000000000000300000000000000030000000000000003000000000000000300000000000000030000000000000003000000000000000300000000000000030000000000000003000000000000000300000000000000030000000000000003000000000000000300000000000000030000000000000003000000000000000300000000000000030000000000000003000000000000000300000000000000030000000000000003000000000000000300000000000000030000000000000003000000000000000300000000000000030000000000000003000000000000000300000000000000030000000000000003000000000000000300000000000000030000000000000003000000000000000300000000000000030000000000000003000000000000000300000000000000030000000000000003000000000000000300000000000000030000000000000003000000000000000300000000000000030000000000000003000000000000000300000000000000030000000000000003000000000000000300000000000000030000000000000003000000000000000300000000000000030000000000000003000000000000000300000000000000030000000000000003000000000000000300000000000000030000000000000003000000000000000300000000000000030000000000000003000000000000000300000000000000030000000000000003000000000000000300000000000000030000000000000003000000000000000300000000000000030000000000000003000000000000000300000000000000030000000000000003000000000000000300000000000000030000000000000003000000000000000300000000000000030000000000000003000000000000000300000000000000030000000000000003000000000000000300000000000000030000000000000003000000000000000300000000000000030000000000000003000000000000000300000000000000030000000000000003000000000000000300000000000000030000000000000003000000000000000300000000000000030000000000000003000000000000000300000000000000030000000000000003000000000000000300000000000000030000000000000003000000000000000300000000000000030000000000000003000000000000000300000000000000030000000000000003000000000000000300000000000000030000000000000003000000000000000300000000000000030000000000000003000000000000000300000000000000030000000000000003000000000000000300000000000000030000000000000003000000000000000300000000000000030000000000000003000000000000000300000000000000030000000000000003000000000000000300000000000000030000000000000003000000000000000300000000000000030000000000000003000000000000000300000000000000030000000000000003000000000000000300000000000000030000000000000003000000000000000300000000000000030000000000000003000000000000000300000000000000030000000000000003000000000000000300000000000000030000000000000003000000000000000300000000000000030000000000000003000000000000000300000000000000030000000000000003000000000000000300000000000000030000000000000003000000000000000300000000000000030000000000000003000000000000000300000000000000030000000000000003000000000000000300000000000000030000000000000003000000000000000300000000000000030000000000000003000000000000000300000000000000030000000000000003000000000000000300000000000000030000000000000003000000000000000300000000000000030000000000000003000000000000000300000000000000030000000000000003000000000000000300000000000000030000000000000003000000000000000300000000000000030000000000000003000000000000000300000000000000030000000000000003000000000000000300000000000000030000000000000003000000000000000300000000000000030000000000000003000000000000000300000000000000030000000000000003000000000000000300000000000000030000000000000003000000000000000300000000000000030000000000000003000000000000000300000000000000030000000000000003000000000000000300000000000000030000000000000003000000000000000300000000000000030000000000000003000000000000000300000000000000030000000000000003000000000000000300000000000000030000000000000003000000000000000300000000000000030000000000000003000000000000000300000000000000030000000000000003000000000000000300000000000000030000000000000003000000000000000300000000000000030000000000000003000000000000000300000000000000030000000000000003000000000000000300000000000000030000000000000003000000000000000300000000000000030000000000000003000000000000000300000000000000030000000000000003000000000000000300000000000000030000000000000003000000000000000300000000000000030000000000000003000000000000000300000000000000030000000000000003000000000000000300000000000000030000000000000003000000000000000300000000000000030000000000000003000000000000000300000000000000030000000000000003000000000000000300000000000000030000000000000003000000000000000300000000000000030000000000000003000000000000000300000000000000030000000000000003000000000000000300000000000000030000000000000003000000000000000300000000000000030000000000000003000000000000000300000000000000030000000000000003000000000000000300000000000000030000000000000003000000000000000300000000000000030000000000000003000000000000000300000000000000030000000000000003000000000000000300000000000000030000000000000003000000000000000300000000000000030000000000000003000000000000000300000000000000030000000000000003000000000000000300000000000000030000000000000003000000000000000300000000000000030000000000000003000000000000000300000000000000030000000000000003000000000000000300000000000000030000000000000003000000000000000300000000000000030000000000000003000000000000000300000000000000030000000000000003000000000000000300000000000000030000000000000003000000000000000300000000000000030000000000000003000000000000000300000000000000030000000000000003000000000000000300000000000000030000000000000003000000000000000300000000000000030000000000000003000000000000000300000000000000030000000000000003000000000000000300000000000000030000000000000003000000000000000300000000000000030000000000000003000000000000000300000000000000030000000000000003000000000000000300000000000000030000000000000003000000000000000300000000000000030000000000000003000000000000000300000000000000030000000000000003000000000000000300000000000000030000000000000003000000000000000300000000000000030000000000000003000000000000000300000000000000030000000000000003000000000000000300000000000000030000000000000003000000000000000300000000000000030000000000000003000000000000000300000000000000030000000000000003000000000000000300000000000000030000000000000003000000000000000300000000000000030000000000000003000000000000000300000000000000030000000000000003000000000000000300000000000000030000000000000003000000000000000300000000000000030000000000000003000000000000000300000000000000030000000000000003000000000000000300000000000000030000000000000003000000000000000300000000000000030000000000000003000000000000000300000000000000030000000000000003000000000000000300000000000000030000000000000003000000000000000300000000000000030000000000000003000000000000000300000000000000030000000000000003000000000000000300000000000000030000000000000003000000000000000300000000000000030000000000000003000000000000000300000000000000030000000000000003000000000000000300000000000000030000000000000003000000000000000300000000000000030000000000000003000000000000000300000000000000030000000000000003000000000000000300000000000000030000000000000003000000000000000300000000000000030000000000000003000000000000000300000000000000030000000000000003000000000000000300000000000000030000000000000003000000000000000300000000000000030000000000000003000000000000000300000000000000030000000000000003000000000000000300000000000000030000000000000003000000000000000300000000000000030000000000000003000000000000000300000000000000030000000000000003000000000000000300000000000000030000000000000003000000000000000300000000000000030000000000000003000000000000000300000000000000030000000000000003000000000000000300000000000000030000000000000003000000000000000300000000000000030000000000000003000000000000000300000000000000030000000000000003000000000000000300000000000000030000000000000003000000000000000300000000000000030000000000000003000000000000000300000000000000030000000000000003000000000000000300000000000000030000000000000003000000000000000300000000000000030000000000000003000000000000000300000000000000030000000000000003000000000000000300000000000000030000000000000003000000000000000300000000000000030000000000000003000000000000000300000000000000030000000000000003000000000000000300000000000000030000000000000003000000000000000300000000000000030000000000000003000000000000000300000000000000030000000000000003000000000000000300000000000000030000000000000003000000000000000300000000000000030000000000000003000000000000000300000000000000030000000000000003000000000000000300000000000000030000000000000003000000000000000300000000000000030000000000000003000000000000000300000000000000030000000000000003000000000000000300000000000000030000000000000003000000000000000300000000000000030000000000000003000000000000000300000000000000030000000000000003000000000000000300000000000000030000000000000003000000000000000300000000000000030000000000000003000000000000000300000000000000030000000000000003000000000000000300000000000000030000000000000003000000000000000300000000000000030000000000000003000000000000000300000000000000030000000000000003000000000000000300000000000000030000000000000003000000000000000300000000000000030000000000000003000000000000000300000000000000030000000000000003000000000000000300000000000000030000000000000003000000000000000300000000000000030000000000000003000000000000000300000000000000030000000000000003000000000000000300000000000000030000000000000003000000000000000300000000000000030000000000000003000000000000000300000000000000030000000000000003000000000000000300000000000000030000000000000003000000000000000300000000000000030000000000000003000000000000000300000000000000030000000000000003000000000000000300000000000000030000000000000003000000000000000300000000000000030000000000000003000000000000000300000000000000030000000000000003000000000000000300000000000000030000000000000003000000000000000300000000000000030000000000000003000000000000000300000000000000030000000000000003000000000000000300000000000000030000000000000003000000000000000300000000000000030000000000000003000000000000000300000000000000030000000000000003000000000000000300000000000000030000000000000003000000000000000300000000000000030000000000000003000000000000000300000000000000030000000000000003000000000000000300000000000000030000000000000003000000000000000300000000000000030000000000000003000000000000000300000000000000030000000000000003000000000000000300000000000000030000000000000003000000000000000300000000000000030000000000000003000000000000000300000000000000030000000000000003000000000000000300000000000000030000000000000003000000000000000300000000000000030000000000000003000000000000000300000000000000030000000000000003000000000000000300000000000000030000000000000003000000000000000300000000000000030000000000000003000000000000000300000000000000030000000000000003000000000000000300000000000000030000000000000003000000000000000300000000000000030000000000000003000000000000000300000000000000030000000000000003000000000000000300000000000000030000000000000003000000000000000300000000000000030000000000000003000000000000000300000000000000030000000000000003000000000000000300000000000000030000000000000003000000000000000300000000000000030000000000000003000000000000000300000000000000030000000000000003000000000000000400000000000000040000000000000004000000000000000400000000000000040000000000000004000000000000000400000000000000040000000000000004000000000000000400000000000000040000000000000004000000000000000400000000000000040000000000000004000000000000000400000000000000040000000000000004000000000000000400000000000000040000000000000004000000000000000400000000000000040000000000000004000000000000000400000000000000040000000000000004000000000000000400000000000000040000000000000004000000000000000400000000000000040000000000000004000000000000000400000000000000040000000000000004000000000000000400000000000000040000000000000004000000000000000400000000000000040000000000000004000000000000000400000000000000040000000000000004000000000000000400000000000000040000000000000004000000000000000400000000000000040000000000000004000000000000000400000000000000040000000000000004000000000000000400000000000000040000000000000004000000000000000400000000000000040000000000000004000000000000000400000000000000040000000000000004000000000000000400000000000000040000000000000004000000000000000400000000000000040000000000000004000000000000000400000000000000040000000000000004000000000000000400000000000000040000000000000004000000000000000400000000000000040000000000000004000000000000000400000000000000040000000000000004000000000000000400000000000000040000000000000004000000000000000400000000000000040000000000000004000000000000000400000000000000040000000000000004000000000000000400000000000000040000000000000004000000000000000400000000000000040000000000000004000000000000000400000000000000040000000000000004000000000000000400000000000000040000000000000004000000000000000400000000000000040000000000000004000000000000000400000000000000040000000000000004000000000000000400000000000000040000000000000004000000000000000400000000000000040000000000000004000000000000000400000000000000040000000000000004000000000000000400000000000000040000000000000004000000000000000400000000000000040000000000000004000000000000000400000000000000040000000000000004000000000000000400000000000000040000000000000004000000000000000400000000000000040000000000000004000000000000000400000000000000040000000000000004000000000000000400000000000000040000000000000004000000000000000400000000000000040000000000000004000000000000000400000000000000040000000000000004000000000000000400000000000000040000000000000004000000000000000400000000000000040000000000000004000000000000000400000000000000040000000000000004000000000000000400000000000000040000000000000004000000000000000400000000000000040000000000000004000000000000000400000000000000040000000000000004000000000000000400000000000000040000000000000004000000000000000400000000000000040000000000000004000000000000000400000000000000040000000000000004000000000000000400000000000000040000000000000004000000000000000400000000000000040000000000000004000000000000000400000000000000040000000000000004000000000000000400000000000000040000000000000004000000000000000400000000000000040000000000000004000000000000000400000000000000040000000000000004000000000000000400000000000000040000000000000004000000000000000400000000000000040000000000000004000000000000000400000000000000040000000000000004000000000000000400000000000000040000000000000004000000000000000400000000000000040000000000000004000000000000000400000000000000040000000000000004000000000000000400000000000000040000000000000004000000000000000400000000000000040000000000000004000000000000000400000000000000040000000000000004000000000000000400000000000000040000000000000004000000000000000400000000000000040000000000000004000000000000000400000000000000040000000000000004000000000000000400000000000000040000000000000004000000000000000400000000000000040000000000000004000000000000000400000000000000040000000000000004000000000000000400000000000000040000000000000004000000000000000400000000000000040000000000000004000000000000000400000000000000040000000000000004000000000000000400000000000000040000000000000004000000000000000400000000000000040000000000000004000000000000000400000000000000040000000000000004000000000000000400000000000000040000000000000004000000000000000400000000000000040000000000000004000000000000000400000000000000040000000000000004000000000000000400000000000000040000000000000004000000000000000400000000000000040000000000000004000000000000000400000000000000040000000000000004000000000000000400000000000000040000000000000004000000000000000400000000000000040000000000000004000000000000000400000000000000040000000000000004000000000000000400000000000000040000000000000004000000000000000400000000000000040000000000000004000000000000000400000000000000040000000000000004000000000000000400000000000000040000000000000004000000000000000400000000000000040000000000000004000000000000000400000000000000040000000000000004000000000000000400000000000000040000000000000004000000000000000400000000000000040000000000000004000000000000000400000000000000040000000000000004000000000000000400000000000000040000000000000004000000000000000400000000000000040000000000000004000000000000000400000000000000040000000000000004000000000000000400000000000000040000000000000004000000000000000400000000000000040000000000000004000000000000000400000000000000040000000000000004000000000000000400000000000000040000000000000004000000000000000400000000000000040000000000000004000000000000000400000000000000040000000000000004000000000000000400000000000000040000000000000004000000000000000400000000000000040000000000000004000000000000000400000000000000040000000000000004000000000000000400000000000000040000000000000004000000000000000400000000000000040000000000000004000000000000000400000000000000040000000000000004000000000000000400000000000000040000000000000004000000000000000400000000000000040000000000000004000000000000000400000000000000040000000000000004000000000000000400000000000000040000000000000004000000000000000400000000000000040000000000000004000000000000000400000000000000040000000000000004000000000000000400000000000000040000000000000004000000000000000400000000000000040000000000000004000000000000000400000000000000040000000000000004000000000000000400000000000000040000000000000004000000000000000400000000000000040000000000000004000000000000000400000000000000040000000000000004000000000000000400000000000000040000000000000004000000000000000400000000000000040000000000000004000000000000000400000000000000040000000000000004000000000000000400000000000000040000000000000004000000000000000400000000000000040000000000000004000000000000000400000000000000040000000000000004000000000000000400000000000000040000000000000004000000000000000400000000000000040000000000000004000000000000000400000000000000040000000000000004000000000000000400000000000000040000000000000004000000000000000400000000000000040000000000000004000000000000000400000000000000040000000000000004000000000000000400000000000000040000000000000004000000000000000400000000000000040000000000000004000000000000000400000000000000040000000000000004000000000000000400000000000000040000000000000004000000000000000400000000000000040000000000000004000000000000000400000000000000040000000000000004000000000000000400000000000000040000000000000004000000000000000400000000000000040000000000000004000000000000000400000000000000040000000000000004000000000000000400000000000000040000000000000004000000000000000400000000000000040000000000000004000000000000000400000000000000040000000000000004000000000000000400000000000000040000000000000004000000000000000400000000000000040000000000000004000000000000000400000000000000040000000000000004000000000000000400000000000000040000000000000004000000000000000400000000000000040000000000000004000000000000000400000000000000040000000000000004000000000000000400000000000000040000000000000004000000000000000400000000000000040000000000000004000000000000000400000000000000040000000000000004000000000000000400000000000000040000000000000004000000000000000400000000000000040000000000000004000000000000000400000000000000040000000000000004000000000000000400000000000000040000000000000004000000000000000400000000000000040000000000000004000000000000000400000000000000040000000000000004000000000000000400000000000000040000000000000004000000000000000400000000000000040000000000000004000000000000000400000000000000040000000000000004000000000000000400000000000000040000000000000004000000000000000400000000000000040000000000000004000000000000000400000000000000040000000000000004000000000000000400000000000000040000000000000004000000000000000400000000000000040000000000000004000000000000000400000000000000040000000000000004000000000000000400000000000000040000000000000004000000000000000400000000000000040000000000000004000000000000000400000000000000040000000000000004000000000000000400000000000000040000000000000004000000000000000400000000000000040000000000000004000000000000000400000000000000040000000000000004000000000000000400000000000000040000000000000004000000000000000400000000000000040000000000000004000000000000000400000000000000040000000000000004000000000000000400000000000000040000000000000004000000000000000400000000000000040000000000000004000000000000000400000000000000040000000000000004000000000000000400000000000000040000000000000004000000000000000400000000000000040000000000000004000000000000000400000000000000040000000000000004000000000000000400000000000000040000000000000004000000000000000400000000000000040000000000000004000000000000000400000000000000040000000000000004000000000000000400000000000000040000000000000004000000000000000400000000000000040000000000000004000000000000000400000000000000040000000000000004000000000000000400000000000000040000000000000004000000000000000400000000000000040000000000000004000000000000000400000000000000040000000000000004000000000000000400000000000000040000000000000004000000000000000400000000000000040000000000000004000000000000000400000000000000040000000000000004000000000000000400000000000000040000000000000004000000000000000400000000000000040000000000000004000000000000000400000000000000040000000000000004000000000000000400000000000000040000000000000004000000000000000400000000000000040000000000000004000000000000000400000000000000040000000000000004000000000000000400000000000000040000000000000004000000000000000400000000000000040000000000000004000000000000000400000000000000040000000000000004000000000000000400000000000000040000000000000004000000000000000400000000000000040000000000000004000000000000000400000000000000040000000000000004000000000000000400000000000000040000000000000004000000000000000400000000000000040000000000000004000000000000000400000000000000040000000000000004000000000000000400000000000000040000000000000004000000000000000400000000000000040000000000000004000000000000000400000000000000040000000000000004000000000000000400000000000000040000000000000004000000000000000400000000000000040000000000000004000000000000000400000000000000040000000000000004000000000000000400000000000000040000000000000004000000000000000400000000000000040000000000000004000000000000000400000000000000040000000000000004000000000000000400000000000000040000000000000004000000000000000400000000000000040000000000000004000000000000000400000000000000040000000000000004000000000000000400000000000000040000000000000004000000000000000400000000000000040000000000000004000000000000000400000000000000040000000000000004000000000000000400000000000000040000000000000004000000000000000400000000000000040000000000000004000000000000000400000000000000040000000000000004000000000000000400000000000000040000000000000004000000000000000400000000000000040000000000000004000000000000000400000000000000040000000000000004000000000000000400000000000000040000000000000004000000000000000400000000000000040000000000000004000000000000000400000000000000040000000000000004000000000000000400000000000000040000000000000004000000000000000400000000000000040000000000000004000000000000000400000000000000040000000000000004000000000000000400000000000000040000000000000004000000000000000400000000000000040000000000000004000000000000000400000000000000040000000000000004000000000000000400000000000000040000000000000004000000000000000400000000000000040000000000000004000000000000000400000000000000040000000000000004000000000000000400000000000000040000000000000004000000000000000400000000000000040000000000000004000000000000000400000000000000040000000000000004000000000000000400000000000000040000000000000004000000000000000400000000000000040000000000000004000000000000000400000000000000040000000000000004000000000000000400000000000000040000000000000004000000000000000400000000000000040000000000000004000000000000000400000000000000040000000000000004000000000000000400000000000000"> : tensor<1x5x28x28xindex>
    %cst_2 = arith.constant dense<"0x000000000000000004000000000000000E00000000000000180000000000000022000000000000002C00000000000000360000000000000040000000000000004A0000000000000054000000000000005E00000000000000680000000000000071000000000000007B0000000000000085000000000000008F000000000000009900000000000000A300000000000000AD00000000000000B700000000000000C100000000000000CB00000000000000D500000000000000DF00000000000000E900000000000000F300000000000000FD00000000000000FF00000000000000FF00000000000000FF00000000000000FF00000000000000FF000000000000000000000000000000000000000000000000000000000000000000000000000000000000000000000000000000000000000000000000000000000000000000000000000000000000000000000000000000000000000000000000000000000000000000000000000000000000000000000000000000000000000000000000000000000000000000000000000000000000000000000000000000000000000000000000000000000000000000000000000000000000000000000000000000000000000000000000000000000000000000000000000000000000000000000000000000000000000000000000000000000000000000000000000000000000000000000000000000000000000000000000000000000000000000000000000000000000000000000000000000000000000000000000000000000000000000000000000000080000000000000012000000000000001C00000000000000260000000000000030000000000000003A0000000000000044000000000000004E00000000000000580000000000000062000000000000006C00000000000000760000000000000080000000000000008A0000000000000094000000000000009E00000000000000A700000000000000B100000000000000BB00000000000000C500000000000000CF00000000000000D900000000000000E300000000000000ED0000000000000000000000000000000000000000000000000000000000000000000000000000000000000000000000000000000000000000000000000000000000000000000000000000000000000000000000000000000000000000000000000000000000000000000000000000000000000000000000000000000000000000000000000000000000000000000000000000000000000000000000000000000000000000000000000000000000000000000000000000000000000000000000000000000000000000000000000000000000000000000000000000000000000000000000000000000000000000000000000000000000000000000000000000000000000000000000000000000000000000000000000000000000000000000000000000000000000002000000000000000C00000000000000160000000000000020000000000000002A0000000000000034000000000000003E00000000000000480000000000000052000000000000005C00000000000000660000000000000070000000000000007A0000000000000084000000000000008E000000000000009800000000000000A100000000000000AB00000000000000B500000000000000BF00000000000000C900000000000000D300000000000000DD00000000000000E700000000000000F100000000000000FB00000000000000FF00000000000000FF00000000000000000000000000000000000000000000000000000000000000000000000000000000000000000000000000000000000000000000000000000000000000000000000000000000000000000000000000000000000000000000000000000000000000000000000000000000000000000000000000000000000000000000000000000000000000000000000000000000000000000000000000000000000000000000000000000000000000000000000000000000000000000000000000000000000000000000000000000000000000000000000000000000000000000000000000000000000000000000000000000000000000000000000000000000000000000000000F00000000000000190000000000000023000000000000002D00000000000000370000000000000041000000000000004B0000000000000055000000000000005F00000000000000690000000000000073000000000000007D00000000000000870000000000000091000000000000009B00000000000000A500000000000000AE00000000000000B800000000000000C200000000000000CC00000000000000D600000000000000E000000000000000EA00000000000000F400000000000000FE00000000000000FF00000000000000FF00000000000000FF00000000000000FF00000000000000FF00000000000000FF00000000000000FF0000000000000000000000000000000000000000000000000000000000000000000000000000000000000000000000000000000000000000000000000000000000000000000000000000000000000000000000000000000000000000000000000000000000000000000000000000000000000000000000000000000000000000000000000000000000000000000000000000000000000000000000000000000000000000000000000000000000000000000000000000000000000000000000000000000000000000000000000000000000000000000000000000000000000000000000000000000000000000000000000000000000000000000000000000000600000000000000000000000000000000000000000000000000000000000000000000000000000000000000000000000000000000000000000000000000000005000000000000000F00000000000000190000000000000023000000000000002D00000000000000370000000000000041000000000000004B0000000000000055000000000000005E00000000000000680000000000000072000000000000007C00000000000000860000000000000090000000000000009A00000000000000A400000000000000AE00000000000000B800000000000000C200000000000000CC00000000000000D600000000000000E000000000000000EA00000000000000F40000000000000000000000000000000000000000000000000000000000000000000000000000000000000000000000000000000000000000000000000000000000000000000000000000000000000000000000000000000000000000000000000000000000000000000000000000000000000000000000000000000000000000000000000000000000000000000000000000000000000000000000000000000000000000000000000000000000000000000000000000000000000000000000000000000000000000000000000000000000000000000000000000000000000000000000000000000000000000000000000000000000000000000000000000000000000000000000"> : tensor<5x64xi64>
    %6 = "FHELinalg.apply_mapped_lookup_table"(%5, %cst_2, %cst_1) : (tensor<1x5x28x28x!FHE.esint<6>>, tensor<5x64xi64>, tensor<1x5x28x28xindex>) -> tensor<1x5x28x28x!FHE.eint<18>>
    %c1_i19 = arith.constant 1 : i19
    %7 = "FHE.zero_tensor"() : () -> tensor<1x5x30x30x!FHE.eint<18>>
    %from_elements_3 = tensor.from_elements %c1_i19 : tensor<1xi19>
    %8 = "FHELinalg.add_eint_int"(%7, %from_elements_3) : (tensor<1x5x30x30x!FHE.eint<18>>, tensor<1xi19>) -> tensor<1x5x30x30x!FHE.eint<18>>
    %c0_i2 = arith.constant 0 : i2
    %from_elements_4 = tensor.from_elements %c0_i2 : tensor<1xi2>
    %9 = "FHELinalg.mul_eint_int"(%8, %from_elements_4) : (tensor<1x5x30x30x!FHE.eint<18>>, tensor<1xi2>) -> tensor<1x5x30x30x!FHE.eint<18>>
    %inserted_slice_5 = tensor.insert_slice %6 into %9[0, 0, 1, 1] [1, 5, 28, 28] [1, 1, 1, 1] : tensor<1x5x28x28x!FHE.eint<18>> into tensor<1x5x30x30x!FHE.eint<18>>
    %cst_6 = arith.constant dense<"0x15000900A5011800EB01FF01F3014B0026003E00AA0181012D00C0015300E801A6018B019D01E101FF0119006D00000052004F002500FF016F003200D5013A00D601C001D701A901BD018B01480037000200F6010F005600E901E001EA010A0026000100CB01D9011B0022002D00B501BB01BB01B901E30107001A002400C40110003400EF0128004800C201DB012900E801CA012000250024003C001A00D6015D004F00E401E601500035000D003D00D201E20109001E000000E101FA0147000600C101F501B40134001A0017003000B301D301E2011C00B101BC01D201AD01A501FA013E00E901B8011E005500DE01360055002500EE01B10132001A00DC01F701F201CA01CA01E001EB01010011001300E001DA013F000800D40132001600C70119000B000400EC01C60148000E00D80130002C004100F6015C001D000D00B5013300BB01350054003500DD013A004700DD01C80114002D001200C201390029003100C3014A00BE013F000200C201EC01C6011700E301ED01E701E701D601120096011E001200DD01D10114002300C4010C000E003E00EB01EF016500C001EB01DE01DC012E0034002C00EF014A00B8014D00D001AC010800C5011300D501B70107001100F5015700E501EE01AB01E4016100BE013B0024004600C8011000BA012100B8013100ED01B901EA01DA01D00162001D005C00E5014000410022004800F201E3011000230041000800030048002600FE013D00AC012500EC01C0012F00D20156004A000E00E6011800E80120001700E001BF013300C8015A000D00A8013C000800F9019D014D004A00ED01F30152001B00AD010E0061003F00E301C3013300ED0101004200F3012B00BD01EF01EE014B00D301C2011B003D004A00FF01FC01E0010500CB01D001F3013100F00117003000E701C201DC01DC01F701310053000900CE013B00FD010200310004003F00C2013F00B60116004400E901F501FE01FF014400DB012500BF01DE010700CE01DF0139001600190058007400C601CE012C0019000C002600F201D601B30141000900FC012100DD01F6014F00A401A601EA01DA01C701CF0148007B007400B40160001E0070002100E201EB013B004C007D00A9016E0026002800E20147000F003300E501F00130003E00E201F301F901DF010E00CD013800C2011B00BC012E0008000700CF010C003A004A001200F201C101140013004F001400B9014C00CA01ED0125000700F7015B003F00B601D201"> : tensor<10x5x3x3xi9>
    %10 = "FHELinalg.to_signed"(%inserted_slice_5) : (tensor<1x5x30x30x!FHE.eint<18>>) -> tensor<1x5x30x30x!FHE.esint<18>>
    %11 = "FHELinalg.conv2d"(%10, %cst_6) {dilations = dense<1> : tensor<2xi64>, group = 1 : i64, padding = dense<0> : tensor<4xi64>, strides = dense<2> : tensor<2xi64>} : (tensor<1x5x30x30x!FHE.esint<18>>, tensor<10x5x3x3xi9>) -> tensor<1x10x14x14x!FHE.esint<18>>
    %12 = "FHELinalg.round"(%11) : (tensor<1x10x14x14x!FHE.esint<18>>) -> tensor<1x10x14x14x!FHE.esint<6>>
    %cst_7 = arith.constant dense<"0x0000000000000000000000000000000000000000000000000000000000000000000000000000000000000000000000000000000000000000000000000000000000000000000000000000000000000000000000000000000000000000000000000000000000000000000000000000000000000000000000000000000000000000000000000000000000000000000000000000000000000000000000000000000000000000000000000000000000000000000000000000000000000000000000000000000000000000000000000000000000000000000000000000000000000000000000000000000000000000000000000000000000000000000000000000000000000000000000000000000000000000000000000000000000000000000000000000000000000000000000000000000000000000000000000000000000000000000000000000000000000000000000000000000000000000000000000000000000000000000000000000000000000000000000000000000000000000000000000000000000000000000000000000000000000000000000000000000000000000000000000000000000000000000000000000000000000000000000000000000000000000000000000000000000000000000000000000000000000000000000000000000000000000000000000000000000000000000000000000000000000000000000000000000000000000000000000000000000000000000000000000000000000000000000000000000000000000000000000000000000000000000000000000000000000000000000000000000000000000000000000000000000000000000000000000000000000000000000000000000000000000000000000000000000000000000000000000000000000000000000000000000000000000000000000000000000000000000000000000000000000000000000000000000000000000000000000000000000000000000000000000000000000000000000000000000000000000000000000000000000000000000000000000000000000000000000000000000000000000000000000000000000000000000000000000000000000000000000000000000000000000000000000000000000000000000000000000000000000000000000000000000000000000000000000000000000000000000000000000000000000000000000000000000000000000000000000000000000000000000000000000000000000000000000000000000000000000000000000000000000000000000000000000000000000000000000000000000000000000000000000000000000000000000000000000000000000000000000000000000000000000000000000000000000000000000000000000000000000000000000000000000000000000000000000000000000000000000000000000000000000000000000000000000000000000000000000000000000000000000000000000000000000000000000000000000000000000000000000000000000000000000000000000000000000000000000000000000000000000000000000000000000000000000000000000000000000000000000000000000000000000000000000000000000000000000000000000000000000000000000000000000000000000000000000000000000000000000000000000000000000000000000000000000000000000000000000000000000000000000000000000000000000000000000000000000000000000000000000000000000000000000000000000000000000000000000000000000000000000000000000000000000000000000000000000000000000000000000000000000000000000000000000000000000000000000000000000000000000000000000000000000000000000000000000000000000000000000000000000000000000000000000000000000000000000000000000000000000000000000000000000000000000000000000000000000000000000000000000000000000000000000000000000000000000000000000000000000000000000000000000000000000000000000000000000000000000000000000000000000000000000000000000000000000000000000000000000000000000000000000000000000000000000010000000000000001000000000000000100000000000000010000000000000001000000000000000100000000000000010000000000000001000000000000000100000000000000010000000000000001000000000000000100000000000000010000000000000001000000000000000100000000000000010000000000000001000000000000000100000000000000010000000000000001000000000000000100000000000000010000000000000001000000000000000100000000000000010000000000000001000000000000000100000000000000010000000000000001000000000000000100000000000000010000000000000001000000000000000100000000000000010000000000000001000000000000000100000000000000010000000000000001000000000000000100000000000000010000000000000001000000000000000100000000000000010000000000000001000000000000000100000000000000010000000000000001000000000000000100000000000000010000000000000001000000000000000100000000000000010000000000000001000000000000000100000000000000010000000000000001000000000000000100000000000000010000000000000001000000000000000100000000000000010000000000000001000000000000000100000000000000010000000000000001000000000000000100000000000000010000000000000001000000000000000100000000000000010000000000000001000000000000000100000000000000010000000000000001000000000000000100000000000000010000000000000001000000000000000100000000000000010000000000000001000000000000000100000000000000010000000000000001000000000000000100000000000000010000000000000001000000000000000100000000000000010000000000000001000000000000000100000000000000010000000000000001000000000000000100000000000000010000000000000001000000000000000100000000000000010000000000000001000000000000000100000000000000010000000000000001000000000000000100000000000000010000000000000001000000000000000100000000000000010000000000000001000000000000000100000000000000010000000000000001000000000000000100000000000000010000000000000001000000000000000100000000000000010000000000000001000000000000000100000000000000010000000000000001000000000000000100000000000000010000000000000001000000000000000100000000000000010000000000000001000000000000000100000000000000010000000000000001000000000000000100000000000000010000000000000001000000000000000100000000000000010000000000000001000000000000000100000000000000010000000000000001000000000000000100000000000000010000000000000001000000000000000100000000000000010000000000000001000000000000000100000000000000010000000000000001000000000000000100000000000000010000000000000001000000000000000100000000000000010000000000000001000000000000000100000000000000010000000000000001000000000000000100000000000000010000000000000001000000000000000100000000000000010000000000000001000000000000000100000000000000010000000000000001000000000000000100000000000000010000000000000001000000000000000100000000000000010000000000000001000000000000000100000000000000010000000000000001000000000000000100000000000000010000000000000001000000000000000100000000000000010000000000000001000000000000000100000000000000010000000000000001000000000000000100000000000000010000000000000001000000000000000100000000000000010000000000000001000000000000000100000000000000010000000000000001000000000000000100000000000000010000000000000001000000000000000100000000000000010000000000000002000000000000000200000000000000020000000000000002000000000000000200000000000000020000000000000002000000000000000200000000000000020000000000000002000000000000000200000000000000020000000000000002000000000000000200000000000000020000000000000002000000000000000200000000000000020000000000000002000000000000000200000000000000020000000000000002000000000000000200000000000000020000000000000002000000000000000200000000000000020000000000000002000000000000000200000000000000020000000000000002000000000000000200000000000000020000000000000002000000000000000200000000000000020000000000000002000000000000000200000000000000020000000000000002000000000000000200000000000000020000000000000002000000000000000200000000000000020000000000000002000000000000000200000000000000020000000000000002000000000000000200000000000000020000000000000002000000000000000200000000000000020000000000000002000000000000000200000000000000020000000000000002000000000000000200000000000000020000000000000002000000000000000200000000000000020000000000000002000000000000000200000000000000020000000000000002000000000000000200000000000000020000000000000002000000000000000200000000000000020000000000000002000000000000000200000000000000020000000000000002000000000000000200000000000000020000000000000002000000000000000200000000000000020000000000000002000000000000000200000000000000020000000000000002000000000000000200000000000000020000000000000002000000000000000200000000000000020000000000000002000000000000000200000000000000020000000000000002000000000000000200000000000000020000000000000002000000000000000200000000000000020000000000000002000000000000000200000000000000020000000000000002000000000000000200000000000000020000000000000002000000000000000200000000000000020000000000000002000000000000000200000000000000020000000000000002000000000000000200000000000000020000000000000002000000000000000200000000000000020000000000000002000000000000000200000000000000020000000000000002000000000000000200000000000000020000000000000002000000000000000200000000000000020000000000000002000000000000000200000000000000020000000000000002000000000000000200000000000000020000000000000002000000000000000200000000000000020000000000000002000000000000000200000000000000020000000000000002000000000000000200000000000000020000000000000002000000000000000200000000000000020000000000000002000000000000000200000000000000020000000000000002000000000000000200000000000000020000000000000002000000000000000200000000000000020000000000000002000000000000000200000000000000020000000000000002000000000000000200000000000000020000000000000002000000000000000200000000000000020000000000000002000000000000000200000000000000020000000000000002000000000000000200000000000000020000000000000002000000000000000200000000000000020000000000000002000000000000000200000000000000020000000000000002000000000000000200000000000000020000000000000002000000000000000200000000000000020000000000000002000000000000000200000000000000020000000000000002000000000000000200000000000000020000000000000002000000000000000200000000000000020000000000000002000000000000000200000000000000020000000000000002000000000000000200000000000000020000000000000002000000000000000300000000000000030000000000000003000000000000000300000000000000030000000000000003000000000000000300000000000000030000000000000003000000000000000300000000000000030000000000000003000000000000000300000000000000030000000000000003000000000000000300000000000000030000000000000003000000000000000300000000000000030000000000000003000000000000000300000000000000030000000000000003000000000000000300000000000000030000000000000003000000000000000300000000000000030000000000000003000000000000000300000000000000030000000000000003000000000000000300000000000000030000000000000003000000000000000300000000000000030000000000000003000000000000000300000000000000030000000000000003000000000000000300000000000000030000000000000003000000000000000300000000000000030000000000000003000000000000000300000000000000030000000000000003000000000000000300000000000000030000000000000003000000000000000300000000000000030000000000000003000000000000000300000000000000030000000000000003000000000000000300000000000000030000000000000003000000000000000300000000000000030000000000000003000000000000000300000000000000030000000000000003000000000000000300000000000000030000000000000003000000000000000300000000000000030000000000000003000000000000000300000000000000030000000000000003000000000000000300000000000000030000000000000003000000000000000300000000000000030000000000000003000000000000000300000000000000030000000000000003000000000000000300000000000000030000000000000003000000000000000300000000000000030000000000000003000000000000000300000000000000030000000000000003000000000000000300000000000000030000000000000003000000000000000300000000000000030000000000000003000000000000000300000000000000030000000000000003000000000000000300000000000000030000000000000003000000000000000300000000000000030000000000000003000000000000000300000000000000030000000000000003000000000000000300000000000000030000000000000003000000000000000300000000000000030000000000000003000000000000000300000000000000030000000000000003000000000000000300000000000000030000000000000003000000000000000300000000000000030000000000000003000000000000000300000000000000030000000000000003000000000000000300000000000000030000000000000003000000000000000300000000000000030000000000000003000000000000000300000000000000030000000000000003000000000000000300000000000000030000000000000003000000000000000300000000000000030000000000000003000000000000000300000000000000030000000000000003000000000000000300000000000000030000000000000003000000000000000300000000000000030000000000000003000000000000000300000000000000030000000000000003000000000000000300000000000000030000000000000003000000000000000300000000000000030000000000000003000000000000000300000000000000030000000000000003000000000000000300000000000000030000000000000003000000000000000300000000000000030000000000000003000000000000000300000000000000030000000000000003000000000000000300000000000000030000000000000003000000000000000300000000000000030000000000000003000000000000000300000000000000030000000000000003000000000000000300000000000000030000000000000003000000000000000300000000000000030000000000000003000000000000000300000000000000030000000000000003000000000000000300000000000000040000000000000004000000000000000400000000000000040000000000000004000000000000000400000000000000040000000000000004000000000000000400000000000000040000000000000004000000000000000400000000000000040000000000000004000000000000000400000000000000040000000000000004000000000000000400000000000000040000000000000004000000000000000400000000000000040000000000000004000000000000000400000000000000040000000000000004000000000000000400000000000000040000000000000004000000000000000400000000000000040000000000000004000000000000000400000000000000040000000000000004000000000000000400000000000000040000000000000004000000000000000400000000000000040000000000000004000000000000000400000000000000040000000000000004000000000000000400000000000000040000000000000004000000000000000400000000000000040000000000000004000000000000000400000000000000040000000000000004000000000000000400000000000000040000000000000004000000000000000400000000000000040000000000000004000000000000000400000000000000040000000000000004000000000000000400000000000000040000000000000004000000000000000400000000000000040000000000000004000000000000000400000000000000040000000000000004000000000000000400000000000000040000000000000004000000000000000400000000000000040000000000000004000000000000000400000000000000040000000000000004000000000000000400000000000000040000000000000004000000000000000400000000000000040000000000000004000000000000000400000000000000040000000000000004000000000000000400000000000000040000000000000004000000000000000400000000000000040000000000000004000000000000000400000000000000040000000000000004000000000000000400000000000000040000000000000004000000000000000400000000000000040000000000000004000000000000000400000000000000040000000000000004000000000000000400000000000000040000000000000004000000000000000400000000000000040000000000000004000000000000000400000000000000040000000000000004000000000000000400000000000000040000000000000004000000000000000400000000000000040000000000000004000000000000000400000000000000040000000000000004000000000000000400000000000000040000000000000004000000000000000400000000000000040000000000000004000000000000000400000000000000040000000000000004000000000000000400000000000000040000000000000004000000000000000400000000000000040000000000000004000000000000000400000000000000040000000000000004000000000000000400000000000000040000000000000004000000000000000400000000000000040000000000000004000000000000000400000000000000040000000000000004000000000000000400000000000000040000000000000004000000000000000400000000000000040000000000000004000000000000000400000000000000040000000000000004000000000000000400000000000000040000000000000004000000000000000400000000000000040000000000000004000000000000000400000000000000040000000000000004000000000000000400000000000000040000000000000004000000000000000400000000000000040000000000000004000000000000000400000000000000040000000000000004000000000000000400000000000000040000000000000004000000000000000400000000000000040000000000000004000000000000000400000000000000040000000000000004000000000000000400000000000000040000000000000004000000000000000400000000000000040000000000000004000000000000000400000000000000040000000000000005000000000000000500000000000000050000000000000005000000000000000500000000000000050000000000000005000000000000000500000000000000050000000000000005000000000000000500000000000000050000000000000005000000000000000500000000000000050000000000000005000000000000000500000000000000050000000000000005000000000000000500000000000000050000000000000005000000000000000500000000000000050000000000000005000000000000000500000000000000050000000000000005000000000000000500000000000000050000000000000005000000000000000500000000000000050000000000000005000000000000000500000000000000050000000000000005000000000000000500000000000000050000000000000005000000000000000500000000000000050000000000000005000000000000000500000000000000050000000000000005000000000000000500000000000000050000000000000005000000000000000500000000000000050000000000000005000000000000000500000000000000050000000000000005000000000000000500000000000000050000000000000005000000000000000500000000000000050000000000000005000000000000000500000000000000050000000000000005000000000000000500000000000000050000000000000005000000000000000500000000000000050000000000000005000000000000000500000000000000050000000000000005000000000000000500000000000000050000000000000005000000000000000500000000000000050000000000000005000000000000000500000000000000050000000000000005000000000000000500000000000000050000000000000005000000000000000500000000000000050000000000000005000000000000000500000000000000050000000000000005000000000000000500000000000000050000000000000005000000000000000500000000000000050000000000000005000000000000000500000000000000050000000000000005000000000000000500000000000000050000000000000005000000000000000500000000000000050000000000000005000000000000000500000000000000050000000000000005000000000000000500000000000000050000000000000005000000000000000500000000000000050000000000000005000000000000000500000000000000050000000000000005000000000000000500000000000000050000000000000005000000000000000500000000000000050000000000000005000000000000000500000000000000050000000000000005000000000000000500000000000000050000000000000005000000000000000500000000000000050000000000000005000000000000000500000000000000050000000000000005000000000000000500000000000000050000000000000005000000000000000500000000000000050000000000000005000000000000000500000000000000050000000000000005000000000000000500000000000000050000000000000005000000000000000500000000000000050000000000000005000000000000000500000000000000050000000000000005000000000000000500000000000000050000000000000005000000000000000500000000000000050000000000000005000000000000000500000000000000050000000000000005000000000000000500000000000000050000000000000005000000000000000500000000000000050000000000000005000000000000000500000000000000050000000000000005000000000000000500000000000000050000000000000005000000000000000500000000000000050000000000000005000000000000000500000000000000050000000000000005000000000000000500000000000000050000000000000005000000000000000500000000000000050000000000000005000000000000000500000000000000050000000000000005000000000000000500000000000000050000000000000005000000000000000500000000000000050000000000000005000000000000000600000000000000060000000000000006000000000000000600000000000000060000000000000006000000000000000600000000000000060000000000000006000000000000000600000000000000060000000000000006000000000000000600000000000000060000000000000006000000000000000600000000000000060000000000000006000000000000000600000000000000060000000000000006000000000000000600000000000000060000000000000006000000000000000600000000000000060000000000000006000000000000000600000000000000060000000000000006000000000000000600000000000000060000000000000006000000000000000600000000000000060000000000000006000000000000000600000000000000060000000000000006000000000000000600000000000000060000000000000006000000000000000600000000000000060000000000000006000000000000000600000000000000060000000000000006000000000000000600000000000000060000000000000006000000000000000600000000000000060000000000000006000000000000000600000000000000060000000000000006000000000000000600000000000000060000000000000006000000000000000600000000000000060000000000000006000000000000000600000000000000060000000000000006000000000000000600000000000000060000000000000006000000000000000600000000000000060000000000000006000000000000000600000000000000060000000000000006000000000000000600000000000000060000000000000006000000000000000600000000000000060000000000000006000000000000000600000000000000060000000000000006000000000000000600000000000000060000000000000006000000000000000600000000000000060000000000000006000000000000000600000000000000060000000000000006000000000000000600000000000000060000000000000006000000000000000600000000000000060000000000000006000000000000000600000000000000060000000000000006000000000000000600000000000000060000000000000006000000000000000600000000000000060000000000000006000000000000000600000000000000060000000000000006000000000000000600000000000000060000000000000006000000000000000600000000000000060000000000000006000000000000000600000000000000060000000000000006000000000000000600000000000000060000000000000006000000000000000600000000000000060000000000000006000000000000000600000000000000060000000000000006000000000000000600000000000000060000000000000006000000000000000600000000000000060000000000000006000000000000000600000000000000060000000000000006000000000000000600000000000000060000000000000006000000000000000600000000000000060000000000000006000000000000000600000000000000060000000000000006000000000000000600000000000000060000000000000006000000000000000600000000000000060000000000000006000000000000000600000000000000060000000000000006000000000000000600000000000000060000000000000006000000000000000600000000000000060000000000000006000000000000000600000000000000060000000000000006000000000000000600000000000000060000000000000006000000000000000600000000000000060000000000000006000000000000000600000000000000060000000000000006000000000000000600000000000000060000000000000006000000000000000600000000000000060000000000000006000000000000000600000000000000060000000000000006000000000000000600000000000000060000000000000006000000000000000600000000000000060000000000000006000000000000000600000000000000060000000000000006000000000000000600000000000000060000000000000006000000000000000600000000000000070000000000000007000000000000000700000000000000070000000000000007000000000000000700000000000000070000000000000007000000000000000700000000000000070000000000000007000000000000000700000000000000070000000000000007000000000000000700000000000000070000000000000007000000000000000700000000000000070000000000000007000000000000000700000000000000070000000000000007000000000000000700000000000000070000000000000007000000000000000700000000000000070000000000000007000000000000000700000000000000070000000000000007000000000000000700000000000000070000000000000007000000000000000700000000000000070000000000000007000000000000000700000000000000070000000000000007000000000000000700000000000000070000000000000007000000000000000700000000000000070000000000000007000000000000000700000000000000070000000000000007000000000000000700000000000000070000000000000007000000000000000700000000000000070000000000000007000000000000000700000000000000070000000000000007000000000000000700000000000000070000000000000007000000000000000700000000000000070000000000000007000000000000000700000000000000070000000000000007000000000000000700000000000000070000000000000007000000000000000700000000000000070000000000000007000000000000000700000000000000070000000000000007000000000000000700000000000000070000000000000007000000000000000700000000000000070000000000000007000000000000000700000000000000070000000000000007000000000000000700000000000000070000000000000007000000000000000700000000000000070000000000000007000000000000000700000000000000070000000000000007000000000000000700000000000000070000000000000007000000000000000700000000000000070000000000000007000000000000000700000000000000070000000000000007000000000000000700000000000000070000000000000007000000000000000700000000000000070000000000000007000000000000000700000000000000070000000000000007000000000000000700000000000000070000000000000007000000000000000700000000000000070000000000000007000000000000000700000000000000070000000000000007000000000000000700000000000000070000000000000007000000000000000700000000000000070000000000000007000000000000000700000000000000070000000000000007000000000000000700000000000000070000000000000007000000000000000700000000000000070000000000000007000000000000000700000000000000070000000000000007000000000000000700000000000000070000000000000007000000000000000700000000000000070000000000000007000000000000000700000000000000070000000000000007000000000000000700000000000000070000000000000007000000000000000700000000000000070000000000000007000000000000000700000000000000070000000000000007000000000000000700000000000000070000000000000007000000000000000700000000000000070000000000000007000000000000000700000000000000070000000000000007000000000000000700000000000000070000000000000007000000000000000700000000000000070000000000000007000000000000000700000000000000070000000000000007000000000000000700000000000000070000000000000007000000000000000700000000000000070000000000000007000000000000000700000000000000070000000000000007000000000000000700000000000000070000000000000007000000000000000700000000000000070000000000000007000000000000000700000000000000070000000000000007000000000000000700000000000000070000000000000008000000000000000800000000000000080000000000000008000000000000000800000000000000080000000000000008000000000000000800000000000000080000000000000008000000000000000800000000000000080000000000000008000000000000000800000000000000080000000000000008000000000000000800000000000000080000000000000008000000000000000800000000000000080000000000000008000000000000000800000000000000080000000000000008000000000000000800000000000000080000000000000008000000000000000800000000000000080000000000000008000000000000000800000000000000080000000000000008000000000000000800000000000000080000000000000008000000000000000800000000000000080000000000000008000000000000000800000000000000080000000000000008000000000000000800000000000000080000000000000008000000000000000800000000000000080000000000000008000000000000000800000000000000080000000000000008000000000000000800000000000000080000000000000008000000000000000800000000000000080000000000000008000000000000000800000000000000080000000000000008000000000000000800000000000000080000000000000008000000000000000800000000000000080000000000000008000000000000000800000000000000080000000000000008000000000000000800000000000000080000000000000008000000000000000800000000000000080000000000000008000000000000000800000000000000080000000000000008000000000000000800000000000000080000000000000008000000000000000800000000000000080000000000000008000000000000000800000000000000080000000000000008000000000000000800000000000000080000000000000008000000000000000800000000000000080000000000000008000000000000000800000000000000080000000000000008000000000000000800000000000000080000000000000008000000000000000800000000000000080000000000000008000000000000000800000000000000080000000000000008000000000000000800000000000000080000000000000008000000000000000800000000000000080000000000000008000000000000000800000000000000080000000000000008000000000000000800000000000000080000000000000008000000000000000800000000000000080000000000000008000000000000000800000000000000080000000000000008000000000000000800000000000000080000000